module {
  func.func @main(%arg0: tensor<1x1x28x28x!FHE.eint<20>>) -> tensor<1x10x!FHE.esint<18>> {
    %cst = arith.constant dense<"0x130000BBFF1F95FF1F1F0000ABFF1FEDFF1F0F00006F0000540000100000600000640000C2FF1F2F0000A6FF1FE6FF1F1F0000ADFF1F62000027000085FF1FD7FF1F490000060000A0FF1F64000028000081FF1FA1FF1FDFFF1F650000EDFF1F2500005300001A0000530000370000E0FF1F92FF1F1E0000FCFF1F4900000D0000EBFF1F390000C0FF1F0A0000240000560000A5FF1FDEFF1F690000C9FF1FE1FF1F2B00005B0000FDFF1FDEFF1FD9FF1F100000D5FF1FC2FF1F280000C3FF1FE0FF1F510000CAFF1F2A0000210000C7FF1F080000B4FF1F9CFF1FAEFF1F380000070000CCFF1FF7FF1F0C0000FCFF1F440000F4FF1F270000D6FF1F98FF1F540000120000F3FF1F240000460000CDFF1FE3FF1F270000000000B5FF1F2F0000F5FF1FB7FF1F640000E9FF1F060000000000520000290000150000C3FF1FFDFF1FFCFF1FE5FF1FC1FF1F2B0000290000FFFF1FCDFF1F2D00003A0000270000740000E9FF1FBCFF1FFDFF1FFCFF1FBCFF1F6800001D0000C6FF1FB3FF1FC0FF1FC5FF1F1E00000C00002B0000700000C5FF1F4000009DFF1F390000510000640000ABFF1FD7FF1FE8FF1FA0FF1F520000290000300000260000300000ACFF1FDEFF1FEFFF1F480000B8FF1FD6FF1F94FF1FF0FF1F190000FFFF1F7E00000E0000DDFF1FD8FF1F1A0000710000E7FF1FE3FF1F5C0000ECFF1FABFF1FA2FF1F190000EFFF1FC0FF1F690000F5FF1F520000620000030000F3FF1F9CFF1FCCFF1FB2FF1F1C0000A3FF1F1C0000FFFF1F150000120000730000F3FF1FB4FF1FC9FF1F270000F9FF1F2200000D0000020000650000450000D9FF1F380000BCFF1FC3FF1F3300002C0000E0FF1FBDFF1F560000010000D5FF1F0000000E0000D4FF1F6A0000320000C1FF1F640000F9FF1F170000D3FF1F4E0000D8FF1F4A0000220000040000D6FF1F1F0000F3FF1FB4FF1F580000730000ECFF1FB5FF1F3E0000ABFF1F2E0000640000620000ABFF1F5C0000FDFF1FF7FF1FA7FF1F480000F8FF1F0400006F0000B7FF1FADFF1FF7FF1F620000B0FF1F570000EBFF1F790000350000050000A1FF1FE1FF1FA6FF1F160000B4FF1FACFF1FEDFF1F3C0000500000A0FF1FDEFF1F2A0000010000C2FF1F3600004900006A0000E8FF1FDDFF1F4C0000F8FF1FD5FF1FBDFF1FE6FF1FB9FF1FB7FF1F1D0000DDFF1FD9FF1FDFFF1F2E0000"> : tensor<32x1x3x3xi21>
    %0 = "FHELinalg.to_signed"(%arg0) : (tensor<1x1x28x28x!FHE.eint<20>>) -> tensor<1x1x28x28x!FHE.esint<20>>
    %1 = "FHELinalg.conv2d"(%0, %cst) {dilations = dense<1> : tensor<2xi64>, group = 1 : i64, padding = dense<0> : tensor<4xi64>, strides = dense<1> : tensor<2xi64>} : (tensor<1x1x28x28x!FHE.esint<20>>, tensor<32x1x3x3xi21>) -> tensor<1x32x26x26x!FHE.esint<20>>
    %c4_i21 = arith.constant 4 : i21
    %from_elements = tensor.from_elements %c4_i21 : tensor<1xi21>
    %2 = "FHELinalg.mul_eint_int"(%1, %from_elements) : (tensor<1x32x26x26x!FHE.esint<20>>, tensor<1xi21>) -> tensor<1x32x26x26x!FHE.esint<20>>
    %3 = "FHELinalg.round"(%2) : (tensor<1x32x26x26x!FHE.esint<20>>) -> tensor<1x32x26x26x!FHE.esint<6>>
    %cst_0 = arith.constant 